0000001100001111
1111011001110100
0000000010110101
0000000111001101
1111000111001111
0010101010100111
0000111001110101
1111110010011110
1111001001010110
1111001100111010
0000101101111010
0000101011000101
1111101111001100
0000001111011010
1111001000000111
0000000001001001
0000011010111010
1111101111100111
0000000110010111
0000001000000001
1110100110111011
0000010111000111
0001111000010011
1111011001111100
0000001100001001
1111110001110010
0001001010010110
0000000000000100
1111101101111100
0000011011011011
1110110000010110
0000000110011001
0000001110100010
0001000100010111
0000000001010110
1111111111010100
1111001000010010
1110011011001111
0000010000110111
0000001011000011
0001010000110011
0000110001010110
0000101100010101
1111010010111000
1111101011010100
0000010011001011
1111010110011001
0000000011001110
0000100000001110
0000010001011101
0000000110000101
0000010110000010
0000010001110110
0001111000010001
1111111000001000
1111110010100111
1111001110111100
1110110110011000
1111111011111010
0001001001000000
1111101001000011
1111100110011011
0000001100001000
1111110111110111
1111110001011001
0000000110110111
0000000111001010
0000011001011011
1111111111101110
1111100011110110
0000100001111000
1111000101011001
1110011000001001
1111111100011101
0000000000001110
1111101100111010
1111100001011101
1110101101000001
1111111110101011
1111110101011111
1111100010011100
1111100001111110
0000000010111010
0000001101010011
0000000101100100
1110001000011000
1111001010010110
1111111000010101
0010000001100001
0001001101011001
1111111111010000
1111000001001111
1111101000110011
1110110100011011
1111111110000001
0000000000111010
1111111111000010
0000011000101101
0000000010000011
0000001101111000
0000110110010110
0000111000110000
1111010000000001
0000000110001110
0000011100001000
1111001011010001
1111010100110000
0000110010001111
1111110111100111
0000001010100010
0000110001001110
1111111110110100
1111001010000000
0000011111100001
0000000100001011
0000010001011101
0001001000110101
1111100111110100
1111001000001101
0000001000000011
1110010110110100
0000010101010010
1110111111101001
1111111100110110
1111100010101010
0000101001011011
0001001110110000
1111110011011010
1111111000001101
1111011111100101
0000000000011101
0000001011000000
0000101011110010
1101110011001111
1110111111001101
1111111101100100
0000111100111010
0000110010011000
1111001101011101
1111011110001001
1111111000001101
0001000110100011
0000101001011101
1111111001110000
0000001100001111
0000001100001101
0000000010000000
1111111001100001
1111000010000100
1110101011100001
0000100000111100
0000001011000000
1111110110000011
1111010100001111
0000100110100100
0000101111001011
0000001101100101
0000010100110101
1111010100100100
1111110110011110
0000010100010011
1111001101000111
0000001000101000
1111111001110111
1110100111110101
1111101000110110
0001101010011011
1111011111111110
1111110110000001
1111110111010111
0001001000010101
0000000010001001
0000001111100011
0000101000101010
1110110111001001
1111110100111110
0000000000000100
0001000100000110
0000000101111110
0000000000110101
1111010010111010
0000110001001101
0000000110100100
0000001010100000
0000101101000000
0000101001011010
0000100001011001
1111001111011001
0000000001111111
0000011110100001
1111011101101000
1111101100100001
0000010001111100
1110111000011001
0000000011110001
1111101101110101
0000001000001101
1111101010000100
1111111001110111
1111111110110001
0000010011101000
1110111010110100
1111111001010110
0001001011000110
0000001001110101
1111100110011101
0000010010010010
1111110001010110
1111101001000101
0000101000101001
0000000110100101
1111101011111100
0000010101010010
1111111110010000
0000110000011100
1111001111111101
1110000100011110
1111111101001010
0000000000111010
1111101110010100
0000000101111101
1110101001001011
0000000001110100
1111101111001101
1111011100110000
1111101000001111
0000000101001111
1111110110001100
0000000101111010
0001000111010010
1111010000101111
1111111110011000
0001000111001001
0001000101111011
0000000000111010
1110111101000110
0000000101001111
1110101011101010
0000000001001100
1111111001001011
0000000011011001
0001000101111100
0000000011000101
1111110010101001
0000101101000111
1111111110110100
1111010110100011
1111111000101011
0001011101010101
1111010011110100
1111011010011001
0000100110111110
0000001001000100
0000000101110001
0000100001001010
1111110110110011
1111011010100010
1111111001000111
0000000101011011
1111101111111000
0001001110111001
0000001111010111
1111010100101111
0000001000000011
1110101100001110
0000010101011001
1111000011010000
0000000000000000
1111111101110001
0000100100101100
0001000011110110
1111101110100001
0000000001011010
0000010111001011
0000000010000101
1111110110100001
0000100010100110
0000101010110110
1111000001001011
1111110110001100
1111111110001110
0000100000110100
1111010110100011
1111100001100001
0000000111101000
0000111111010100
0000011011010000
1111110111111111
1111101101001001
0001000101001111
1111111001001010
1111111111110100
1111011110101100
1110010101000110
0000010101111010
0000000110101110
0000010000001011
1111100101010110
0000010111010010
0000011100100110
0000001010000111
0000010011011111
1111011111001111
0000001110100111
1111111111111110
0000100100100101
1111111010100100
1111111110100111
1110111111101001
1111110001010111
0000110011100000
1111110101000010
1111111100000011
0000000001100100
0000101010011101
0000001000001000
0000010001100000
0000011100110000
1111001100011001
0000010000101110
1111110111111000
1110011011110011
1111111101001011
0000000000000110
1111100101000011
0000101010110110
0000010011001111
0000001101101011
1111110001011001
0000010111011000
0000010000010110
1111011101100011
0000000111111100
0000010111001000
1111100100111000
0000000000101000
0000000000000000
0000010001110111
1111110001110101
1111111011111011
0000001101110000
1110010011010011
1111110011001010
1111111010100001
0000101010010010
1111010010010001
1111111110000100
0000110010111000
0000001001001011
1111110011011101
0000010001000110
0000010001010010
1111111111111100
0001001110110110
1111101110000010
1111111010001010
0000001101010000
0000001101111110
0000010000100111
1111010110010101
1111001001110100
0000000100110010
0000000101110101
1111111010001000
0000001010110100
1111001001100101
0000000100010001
0000011000010111
1111111001001010
0000100001001011
1111110010000010
1111111101000000
0000000101111100
0001010111000111
1111110000001001
0000000001100010
1111110101000110
0000101000011100
0000000100111111
1111001101101101
0000010000000010
1111000111010110
0000000000110110
0000010011101000
1111111110100101
1111010110101010
1111111011111101
1111111110010110
0000011001001111
1111001101000111
1111100111101000
1111111100110011
0001001110010000
1111011011101111
1111100110000011
0000011111000000
0000001001000101
0000000000000001
0000010111100010
0000001100000100
1111110011011101
1111001000011101
1111111010011111
1111111100111001
0000101011110100
0000011111110110
1111100010000111
0000001010100010
1111101111110100
0000010101110001
1111010111010000
0000000101011110
0000000111011111
0000001101001001
0000101111101000
0000010001111101
0000000100001110
0000010011100000
1111111000000001
1111111101110111
0000011000111000
0001100101111101
1111100111001011
1111110000100010
1111011000111110
0000010011011100
1111100101110001
1111100000001110
0000010000111011
0000100110100101
0000010011011011
0000010000001001
0000000000000111
0000000000000100
1111111110110001
0000000000110011
0000000000111101
0000000000010010
0000000000000111
0000000000000000
0000000001001101
1111111111101011
1111111111101111
1111111111101011
0000000000000010
1111111111111000
0000000001011011
1111111110100010
1111111111101101
1111111111111100
1111111101001111
0000000000001010
1111111111101000
0000000000010000
0000000000001001
0000000000000001
0000000001000010
1111111111011111
0000000000101111
1111111111101111
0000000000011100
0000000000100001
1111111111011010
1111111111101111
1111111111111110
0000000000001010
0000000000110011
1111111111100110
1111111111111110
0000000000010110
0000000000000101
0000000000000110
0000000000001000
1111111111111100
1111111111111000
1111111111101111
1111111111111111
0000000000011100
1111111110111110
0000000001100110
0000000000101111
1111111111111111
1111111101001100
1111111111101000
1111111110111010
0000000000001011
1111111111111011
1111111111111111
0000000000000100
1111111111110000
0000000001011100
1111111111100110
1111111111111001
0000000001000110
0000000000111101
1111111111101100
0000000000100010
1111111111111011
0000000001010010
0000000000010110
1111111111000000
0000000000010101
0000000000001101
0000000000000100
0000000000000010
1111111111100000
1111111110101111
1111111111101111
0000000000001011
1111111110001111
1111111111011110
1111111111010011
0000000000100111
0000000000000110
0000000011100110
0000000000010010
1111111111110100
0000000000010110
0000000000001001
0000000000010110
1111111111110100
1111111111111101
1111111111011101
1111111111110010
0000000000000100
0000000000001100
1111111111001001
1111111111111010
1111111110101110
0000000000000101
0000000000001011
1111111111000010
1111111111011001
0000000000000100
1111111111101100
0000000000001000
1111111111011000
0000000000010101
1111111111000101
1111111111110000
1111111111111000
0000000000110101
0000000000101010
1111111111101011
1111111111001001
0000000000000111
0000000010100010
1111111111100111
1111111111111100
0000000000010000
1111111111110111
0000000000010111
1111111111011000
1111111111111101
0000000000011010
1111111111110111
1111111111110111
1111111111010111
1111111111110100
1111111111100111
1111111111111000
0000000000001101
1111111110001100
0000000000111010
0000000000101110
0000000000001101
0000000000001111
0000000000010011
1111111111011111
1111111111111010
0000000000001000
1111111111110101
0000000000000101
0000000000001001
0000000000010000
0000000000011011
0000000000000101
1111111111110011
1111111110110011
1111111111100101
0000000010001000
0000000000000000
0000000000010100
0000000000001000
0000000001001111
0000000000001010
0000000000101000
0000000000000000
1111111111110000
0000000000110001
1111111111110111
1111111111110100
0000000000101011
0000000000000011
1111111110110011
1111111111110101
0000000000010111
0000000000001101
0000000000001000
0000000000000100
0000000001010011
1111111111111010
1111111111111001
0000000000000011
1111111111111010
1111111111110101
0000000000010101
0000000001101101
0000000000000000
1111111111111110
1111111111100011
1111111111111011
1111111111101010
0000000000001101
0000000000001000
0000000000100010
0000000000110000
1111111111110001
1111111111001001
0000000000001110
1111111111111100
1111111111101101
0000000000011101
0000000010110010
1111111111100100
0000000000000000
1111111110011111
0000000001010001
0000000001000010
0000000000000110
0000000000011001
0000000000001110
1111111111110010
0000000000001010
1111111111011010
0000000000001010
1111111111110110
0000000000001000
1111111111011100
1111111101110110
1111111111111101
0000000000000001
1111111111111110
1111111111000001
1111111111000010
0000000000010100
0000000000001011
1111111111111111
1111111111101100
1111111111100111
0000000000000001
1111111111110111
1111111111111011
0000000001010011
0000000000011111
1111111110101111
1111111111011010
0000000000000010
0000000001000110
1111111111010111
1111111110110101
0000000000001010
0000000000001001
0000000000000101
1111111111110001
1111111111100111
0000000000000110
0000000000000101
1111111111110001
1111111111000111
0000000000001100
0000000001101000
1111111110111111
1111111111111010
1111111111100100
0000000001000100
1111111111100010
1111111111111010
0000000000001101
0000000000001010
1111111111010011
0000000000000100
0000000000001101
0000000000010011
1111111111110110
1111111111100001
1111111111010010
1111111110110010
1111111111100110
1111111111110110
0000000001000110
0000000001100111
1111111110110000
0000000000001011
0000000000000010
1111111111111100
1111111111011010
1111111111110110
0000000000001110
0000000000000111
1111111111111110
0000000000110010
0000000000010000
1111111110011101
1111111111001101
1111111111110110
0000000001011100
1111111111000100
1111111110110100
0000000000000101
0000000000001000
1111111111111101
1111111111011101
1111111111101101
1111111111110010
0000000000001100
1111111111111110
0000000000011101
0000000000011001
1111111111101011
0000000000111111
0000000000100010
0000000000010110
1111111111011101
1111111110010110
0000000000100111
1111111111110111
1111111111111011
0000000000000100
1111111111110010
1111111111111010
1111111111111111
1111111111111100
0000000000000100
0000000000001010
0000000000000011
0000000011001011
0000000000101110
0000000000010010
1111111111110000
1111111111011011
0000000000010011
0000000000010101
1111111111011100
0000000000011100
1111111111100111
0000000000000011
1111111111111010
0000000000000011
0000000000010001
0000000000001010
1111111111010001
0000000010010000
0000000000011101
0000000000110111
0000000000000111
0000000000010111
0000000000010011
0000000000011100
0000000000000010
0000000000011100
0000000000001011
0000000000010110
1111111111111100
0000000000000001
1111111111010110
0000000000101000
1111111110110100
1111111111001011
0000000000110010
1111111111110101
0000000000000111
1111111111100001
1111111111111100
1111111111110010
1111111111110100
1111111111110001
1111111111100001
1111111111110010
1111111111111100
1111111111111011
1111111111110111
0000000000001011
0000000000100101
0000000001111111
0000000001001011
1111111111111000
1111111111110101
0000000000000110
0000000000001001
0000000000000101
1111111111010011
1111111111101100
1111111111000101
1111111111111001
1111111111111000
1111111111111110
0000000000010001
1111111111110101
0000000000000101
0000000001011110
0000000000110011
1111111111101100
0000000000000101
0000000000001000
0000000000101011
0000000000001100
1111111111011100
1111111111111100
1111111111100001
0000000000011000
1111111111111100
0000000000000011
1111111111110100
0000000000001110
1111111111110010
1111111010101100
0000000000011001
1111111111101011
0000000000011000
0000000000101001
1111111111100110
1111111111110110
0000000000011111
1111111111110110
0000000000000101
1111111111101100
1111111111111101
1111111111111110
1111111111110010
0000000000000011
0000000000011111
1111111101011100
0000000000101010
1111111111101110
1111111111111111
0000000000111000
1111111111101000
0000000000000100
1111111111111000
1111111111100111
1111111111110110
0000000000001010
1111111111111010
0000000000000001
0000000000011101
1111111111101101
0000000000001001
1111111101110110
0000000000010110
1111111111000000
0000000000001110
0000000000110001
0000000000010010
0000000000001101
1111111111110001
1111111111101100
1111111111101111
0000000000001110
1111111111111011
0000000000000011
0000000000001000
1111111111110010
0000000000011100
0000000001010110
1111111111111110
0000000000010010
1111111111011000
1111111111001101
0000000001001101
1111111111110100
1111111110010101
1111111111110100
1111111111011001
1111111111110101
1111111111111011
0000000000000000
0000000000000011
0000000000000001
0000000000001100
0000000011011001
1111111111110100
1111111111111100
1111111111110110
0000000000001001
0000000001011010
0000000000010100
1111111101111100
0000000000000001
1111111111011001
0000000000010010
1111111111110010
1111111111111111
0000000000001110
0000000000000001
1111111111010101
0000000000111101
0000000000001001
0000000000111001
0000000000010011
0000000000100011
0000000000100110
0000000000100110
1111111111000100
0000000000011110
0000000000000100
0000000000100010
1111111111111101
1111111111111111
1111111111100111
0000000000111010
1111111110111111
1111111111111100
1111111111110100
1111111111100010
0000000000001100
1111111111111011
0000000000101010
1111111111101000
1111111110010111
1111111111100110
1111111111100011
1111111111101100
0000000000001101
0000000000000001
1111111111110101
1111111111101101
0000000000101101
0000000100000010
1111111111100010
1111111111111110
0000000000000111
0000000000000100
0000000001011111
1111111111110110
1111111101101100
1111111111100001
1111111111010101
0000000000000001
0000000000000100
0000000000000000
1111111111111100
1111111111011111
1111111111101011
0000000010100101
0000000000000000
0000000000010010
0000000000001001
1111111111111110
0000000001011111
0000000000000011
1111111110010110
1111111111100110
1111111111100100
0000000000010100
0000000000001011
0000000000000000
1111111111101101
0000000000011111
0000000000000011
1111111001010010
1111111111111010
1111111111111111
0000000000000100
0000000000001011
1111111110111010
1111111111111011
1111111111000011
0000000000010111
0000000000011010
1111111111100111
0000000000000111
1111111111111101
1111111111101101
1111111111101110
0000000000011111
1111111101010000
1111111111101110
0000000000000001
1111111111110101
1111111111110111
1111111111000100
0000000000000100
1111111110010011
0000000000001011
0000000000011110
0000000000001001
0000000000000010
0000000000000001
0000000000100010
1111111111101010
1111111111101100
1111111101110000
0000000000000011
1111111111010100
0000000000001001
1111111111111000
1111111111100101
0000000000010000
1111111110100111
0000000000001001
0000000000000001
0000000000001001
0000000000000010
0000000000000001
0000000000001100
0000000000000111
0000000000101010
0000000000100001
1111111111111011
0000000000001000
1111111110111000
1111111011110000
1111111111111001
1111111111111000
1111111111111011
0000000000100011
1111111111110010
0000000001000101
1111111111110110
0000000000000111
0000000001111011
1111111111101000
0000000000000010
0000000000100000
0000000000000000
1111111110101111
0000000001011111
1111111101011111
1111111111111111
1111111111011011
1111111111101101
1111111111010111
1111111111111101
0000000000100110
0000000000000101
0000000000001000
1111111101100011
1111111111101100
1111111110011111
0000000000111111
1111111111111100
0000000000011101
0000000001101100
1111111111000010
1111111111111010
1111111111111010
1111111111110100
0000000000100101
1111111111111101
1111111110110101
1111111111110100
0000000000000010
0000000000011111
1111111111100000
1111111111010001
0000000000010010
0000000000000100
1111111111000001
1111111101000000
1111111101101110
1111111111111010
0000000000011011
1111111111110001
1111111111101111
1111111111111111
1111111111110110
0000000000010011
0000000000000100
0000000001101110
1111111111011111
0000000000110011
0000000000101110
0000000000000100
1111111111100000
0000000000000101
0000000001000111
1111111111110001
1111111111111000
1111111111111001
1111111111001101
0000000000000101
1111111101101111
1111111111111100
0000000000000001
1111111111001100
1111111111100111
1111111111110000
0000000000110000
0000000000000011
0000000001011111
0000000010111110
0000000000101110
1111111111111111
0000000000000101
1111111111110011
1111111111101011
0000000000000001
1111111111011100
0000000000000010
1111111111111001
1111111101001110
1111111111100001
1111111111000001
0000000000100100
0000000000000001
1111111111011011
1111111101101110
0000000000101000
1111111111111111
0000000000011101
1111111111111000
1111111111101000
1111111111111100
1111111110011100
0000000000000110
1111111111111100
1111111111111101
1111111111100100
0000000001000001
0000000000100001
0000000000000100
0000000001000010
1111111110100000
0000000010000110
1111111111110001
1111111111101011
1111111111110100
0000000000100111
1111111111111011
1111111111010110
0000000000000001
1111111111101111
0000000001011000
1111111111100110
0000000001001101
0000000000011000
0000000000000011
0000000000010110
0000000001101101
0000000010001100
1111111111111110
1111111111110001
1111111111110111
0000000000000111
1111111111111111
0000000001100000
0000000000000011
1111111111111011
1111111101101111
1111111111100011
1111111111010110
1111111111111111
0000000000001000
1111111111100101
0000000000001100
0000000001100110
1111111111110011
0000000000010001
1111111111110000
0000000000001110
0000000000111010
1111111111111111
1111111111101110
1111111111110011
0000000000001011
0000000000000101
1111111111111111
0000000001011101
0000000000001101
1111111111010101
1111111111101000
0000000001000011
0000000000001101
0000000000000001
1111111111101011
0000000000001101
0000000000110001
1111111111110110
1111111111101101
1111111111110100
1111111111110000
1111111111111010
0000000001001111
1111111111101000
0000000000000100
0000000000001010
0000000000000110
0000000000101000
0000000000000100
1111111111110011
1111111111101011
0000000000001001
0000000000000101
0000000000000100
1111111111101100
0000000000000000
0000000000010000
0000000000001110
0000000000010011
0000000000000001
0000000000000001
1111111111100100
0000000000010001
0000000000000010
1111111111101100
1111111111101100
1111111111110000
1111111111101111
0000000000101000
1111111111111000
0000000000000011
0000000000000011
0000000000101010
1111111111111011
1111111110101110
0000000001011111
0000000000000101
0000000000100110
1111111111101001
1111111111001010
0000000000011000
1111111111110000
1111111111110100
1111111111111000
0000000000000100
0000000000101110
0000000000000011
0000000000001010
1111111111010100
1111111111100101
1111111111101110
0000000000111001
0000000000001001
0000000000110111
1111111111101011
1111111111011001
0000000000011101
1111111111101110
1111111111101101
1111111111111101
1111111111101011
1111111111110111
0000000000001011
0000000000001100
0000000000001000
1111111111111111
0000000000111011
1111111111011101
0000000000000011
0000000000110011
1111111111110001
1111111111010100
0000000000000100
1111111111101110
1111111111110110
1111111111101111
1111111111101001
0000000000001111
0000000000000110
0000000000000101
1111111111101001
0000000000000110
1111111111111001
0000000000011011
0000000000001001
0000000000011001
0000000000100101
1111111110011110
1111111111111011
0000000000000100
1111111111110010
1111111111110100
0000000000010110
1111111111010010
0000000000001111
0000000000000111
0000000000101100
1111111111110100
1111111110011101
0000000001000001
1111111111111101
1111111111010011
1111111111110101
1111111111101101
1111111111111100
0000000000010000
1111111111111110
0000000000000110
1111111111111110
1111111111111100
1111111111111011
1111111111111101
0000000000000000
0000000000001011
0000000000010101
0000000001011000
1111111111111110
0000000001101110
0000000000001101
1111111111111001
1111111111111001
0000000000010101
0000000000000001
1111111101001010
1111111111111001
1111111110101011
1111111111110111
1111111111111100
1111111110100111
1111111111101000
1111111111000100
0000000000001101
0000000000000010
0000000000110010
1111111111100010
1111111111000001
1111111111111000
1111111111000110
0000000000000000
1111111101011101
1111111111111010
1111111111000010
0000000000010001
1111111111110111
0000000000101011
1111111111110011
1111111111001001
0000000000011100
1111111111111101
0000000000001110
1111111111111110
1111111111110100
0000000000000000
1111111111001000
0000000000000001
1111111101101111
1111111111110111
0000000000010110
1111111111111111
0000000000000011
0000000000100101
1111111111110100
1111111110111000
0000000001000001
1111111111111100
0000000001000100
0000000000111000
1111111111111011
1111111111111010
1111111111111100
1111111111101110
0000000000010011
1111111111111110
1111111110111001
1111111111110101
1111111111110111
1111111100100110
1111111111100010
0000000000011101
0000000000011010
1111111111111100
1111111111111001
1111111110100101
1111111111000110
1111111111110100
1111111111110111
1111111111110011
0000000000001011
1111111111111000
0000000000000111
1111111111111101
0000000000000000
1111111111000000
1111111111110000
1111111111100111
0000000000011001
1111111111111101
1111111110010101
1111111110110100
0000000000001100
1111111111111010
0000000000000011
1111111111111000
1111111111110110
1111111111110011
0000000000110001
0000000000000100
0000000000001110
1111111111011010
1111111111111011
1111111110101011
0000000000111011
1111111111111010
0000000000000010
1111111111101101
0000000000000000
1111111111111101
1111111111110100
1111111111101100
0000000001100111
0000000000000010
0000000000111101
0000000000001001
1111111111111010
1111111111010010
1111111111011011
0000000000110100
0000000000001111
1111111111111011
1111111111001010
1111111111000111
1111111111110111
1111111111110111
1111111111100111
1111111111101111
0000000001111010
1111111111110010
0000000000001011
0000000000010101
0000000000000011
1111111110101010
1111111111101001
0000000000100001
0000000000101011
1111111111110110
1111111101110011
1111111111001000
1111111111111101
1111111111111011
1111111111101011
1111111111111011
0000000001001101
1111111111110001
1111111110100110
0000000000001100
0000000000001001
1111111111001001
1111111111101111
0000000000000110
0000000000000000
0000000000001010
0000000000010110
0000000001010101
0000000011110000
1111111111110100
0000000000001101
1111111111101111
1111111111110100
0000000000001011
1111111110110000
1111111111010100
0000000000000101
1111111111001100
0000000001000010
1111111111111100
1111111111100011
1111111111110111
1111111111000100
1111111110111010
0000000010110011
1111111111101000
1111111111110100
1111111111101010
1111111111101010
1111111111101011
0000000000011001
1111111111011110
0000000000000110
0000000000101010
1111111111110100
0000000010101001
1111111111101110
0000000000000101
1111111110100001
1111111110110000
0000000001001000
0000000000000000
1111111111111100
0000000000000111
1111111111100011
1111111111111010
0000000001001100
1111111111100101
1111111111111011
0000000000001101
1111111110001001
0000000010110010
0000000000110110
1111111111111011
1111111111001000
0000000000111101
0000000000001000
1111111111110001
0000000000000000
1111111111111110
0000000001000001
0000000000000001
0000000000111101
1111111111001110
0000000000000010
0000000001000011
0000000001010000
1111111110001001
0000000000000010
1111111111100000
1111111101100011
0000000000001011
1111111101111100
1111111111011011
1111111111111000
1111111111110001
0000000000101100
1111111111011000
0000000000110011
1111111111001101
0000000000001100
1111111101100001
0000000000101100
1111111110101010
0000000000011111
1111111111110110
0000000001011011
1111111110101011
1111111101111111
1111111111110110
0000000000000011
0000000000001001
0000000001000001
1111111111101010
1111111111001110
1111111111011100
0000000000001001
0000000000101011
1111111110000110
0000000001111001
0000000000010111
0000000000000101
1111111110100101
1111111111100011
1111111110111110
0000000000000100
0000000000001011
0000000000010000
1111111111011000
0000000000010000
1111111111110001
1111111111010011
0000000000000011
0000000001001001
0000000001001010
1111111110000011
1111111111100010
1111111111110100
0000000001010011
0000000001011110
1111111110101111
1111111111111011
1111111111111111
0000000000001001
1111111111001110
1111111111111011
1111111110100110
1111111111010101
1111111111111101
1111111111110000
0000000000010000
1111111101110110
1111111111101001
0000000000000110
0000000011100001
0000000001000110
1111111111000100
0000000000000010
0000000000000110
0000000000010000
1111111111100010
1111111111111110
1111111111110011
1111111111011101
0000000000000010
1111111111101101
1111111110100000
1111111111010111
1111111111111000
0000000000000000
1111111111110100
1111111111110001
0000000001001100
0000000000000011
1111111111010101
1111111111111001
1111111111001001
0000000000000011
1111111111110101
1111111111101001
1111111111111101
0000000000011101
1111111111001111
1111111111111011
1111111111111111
0000000000000101
1111111111110011
1111111110100111
1111111111100010
0000000000000110
1111111111000110
0000000000000010
1111111111110110
0000000000001000
1111111111101000
1111111111110000
0000000000000100
1111111111011010
1111111111011011
0000000001110011
0000000000000110
0000000000000011
1111111111110001
0000000000000000
1111111111110011
0000000000000101
1111111111001000
0000000000010010
1111111111011101
0000000000000111
1111111111001111
1111111111111000
1111111111111000
1111111111010100
0000000000000101
0000000000110001
1111111111011110
0000000000000010
1111111111111111
0000000000000100
1111111111001101
0000000000000101
1111111111010001
0000000000001101
1111111111011010
0000000000000001
1111111111000010
1111111111111100
1111111111111111
0000000001101111
1111111111000101
1111111110101101
1111111111110111
0000000000000010
1111111110011000
0000000001001011
1111111101100011
0000000000001000
1111111111011100
0000000000001010
0000000000010010
1111111111111110
1111111110101000
1111111111101111
1111111111111101
1111111111011011
1111111110111010
1111111110101100
1111111111110100
0000000000000010
1111111111001011
1111111110110000
1111111111110110
1111111111111111
1111111111001000
1111111111111101
0000000000011000
0000000000000100
1111111111000011
1111111111111101
0000000000000110
0000000001010110
1111111111100110
0000000000101010
1111111111100100
0000000000000010
1111111111110101
1111111111100001
1111111111100110
1111111111111001
1111111111110011
0000000000000000
1111111111111001
0000000000000000
1111111111101110
0000000000000010
1111111111111101
1111111110100110
0000000000011010
0000000000011111
0000000000011101
0000000000000101
1111111110111111
0000000000100100
1111111111000010
1111111111111110
1111111111010010
1111111111110101
0000000000011000
0000000000000111
1111111111001010
0000000000000001
1111111111110001
0000000000100000
1111111111110100
1111111110100001
0000000000000111
1111111111111111
0000000000111000
0000000000011111
0000000000101011
0000000000000011
1111111111010100
1111111111111101
0000000000001000
0000000000000001
0000000000011000
1111111111111101
1111111111111000
0000000000010011
1111111111111001
1111111111011101
1111111111001010
0000000000000000
0000000000011011
0000000000101100
0000000001010001
0000000000000001
1111111110101100
0000000000001001
1111111111101111
0000000000000000
1111111111011000
0000000000000110
0000000000001101
0000000000110011
0000000000011110
1111111110101001
0000000000011011
0000000000000000
1111111111010010
0000000000001010
0000000001101000
0000000000000001
1111111110110111
1111111111111110
1111111110110001
0000000000000010
1111111101100001
1111111111111001
0000000000001010
1111111100111001
0000000000011010
1111111111111111
1111111111111110
1111111111111101
0000000000010100
0000000000100000
0000000000000100
0000000000000001
1111111110100000
1111111111111110
1111111111101001
1111111111111110
1111111111110111
1111111111111101
0000000000001111
0000000000011100
0000000000100001
0000000000010100
1111111110010110
1111111111111101
0000000000000001
1111111101001000
1111111111100011
1111111111111100
1111111110110001
1111111111111110
1111111111111001
1111111111111100
1111111111101010
0000000000010100
0000000000001000
1111111111011100
1111111111001111
1111111110100100
0000000000011101
1111111111111101
0000000001010110
0000000000110111
1111111101101011
0000000000000010
1111111111000011
0000000000000110
1111111111110000
0000000000000010
0000000011100011
1111111111111110
0000000000000111
0000000001001011
1111111111010011
1111111111000111
0000000000001100
0000000000000010
1111111110100011
1111111111111110
1111111111100010
1111111111111101
1111111110100010
1111111111111100
0000000000001111
0000000000000010
0000000001000100
0000000000000100
0000000000010010
1111111111101001
1111111111111101
0000000000010111
1111111111000000
1111111111111100
1111111111000100
1111111110110110
1111111111101011
1111111111111101
1111111111001101
1111111111111001
0000000000010000
0000000000000011
0000000000100011
0000000000010000
1111111111111100
1111111111100000
0000000000000100
1111111111100001
0000000000001101
0000000000000000
1111111111001000
1111111101111110
1111111110010000
1111111111111111
1111111111010011
0000000000001001
1111111111111101
1111111111111001
1111111101111111
0000000000001101
0000000000000010
0000000001101010
1111111111111001
1111111101110100
0000000000000011
0000000000000001
1111111111010011
1111111111010100
0000000000001010
1111111111111111
1111111111100000
1111111111111101
0000000000011000
0000000000000001
1111111111110110
0000000000000111
1111111111111111
1111111110011001
0000000000011001
0000000000000001
1111111111000000
0000000000000100
1111111110110110
1111111111011000
1111111111111110
0000000000000100
0000000000011010
0000000000000011
0000000011111000
0000000000000110
0000000000110010
1111111111111101
0000000000000011
0000000010001011
0000000000100111
0000000000001110
1111111111110000
0000000000000011
1111111110011010
0000000000000101
0000000000100010
0000000000000111
0000000000001100
1111111111111111
0000000100001000
0000000000001101
0000000001010100
1111111111111001
0000000000100000
1111111101010111
0000000000000111
0000000000100110
1111111110111001
0000000000000001
1111111111111010
0000000000111010
0000000000001100
1111111111111011
0000000000101111
1111111111111100
0000000010111101
0000000000001000
1111111111110110
1111111111111110
0000000000001011
0000000000001100
0000000000011000
0000000001010011
1111111111010000
0000000000000111
1111111101111111
1111111110100110
0000000000010111
0000000000000011
1111111111101011
0000000000001101
1111111111110101
0000000000000101
0000000001111010
0000000000011000
0000000000001111
0000000010001110
0000000000011110
1111111110011100
1111111111110110
0000000000000100
1111111110011111
0000000001010101
0000000001000100
0000000000000110
0000000000000000
0000000000010000
1111111110101100
0000000000001101
1111111010100111
0000000000000110
1111111111111111
1111111111000100
1111111111111011
1111111111011110
1111111111100010
0000000000000011
0000000100000011
0000000000000111
1111111111001011
0000000000000010
0000000000000000
0000000000000001
1111111111101111
0000000000001011
1111111111110111
0000000000011011
0000000000001001
1111111111000100
0000000000010000
0000000001110101
1111111111111000
0000000000000100
0000000000010001
1111111111111100
1111111111100001
0000000000000000
0000000000010111
0000000000001001
1111111101101001
0000000000000010
1111111110101101
1111111111111100
0000000000000111
1111111111001000
0000000000011111
1111111110111111
1111111111101011
0000000000000100
0000000001001110
1111111110011010
1111111111110100
0000000000000100
0000000000010010
0000000000001011
1111111101100001
0000000000000101
0000000001001000
1111111111110100
1111111111111110
0000000010111100
0000000000010110
1111111110111000
1111111111010011
0000000000000010
0000000001100111
0000000000010110
1111111111001111
1111111111111110
0000000000010001
0000000000000001
1111111101110101
0000000000001010
0000000000001000
1111111111110110
0000000000000011
1111111110010010
0000000000011110
1111111111010100
1111111110101100
1111111111111111
1111111111110100
0000000000001100
0000000000011001
1111111111111111
1111111110110100
0000000000000110
1111111111010100
1111111111111111
0000000000101110
1111111111111011
0000000000011001
1111111111000010
1111111101011100
1111111111110010
0000000000011111
0000000000000011
1111111101110100
1111111110000110
1111111111010010
0000000000000101
1111111110101011
0000000000000000
1111111110110100
1111111111111111
0000000001101001
0000000000001010
0000000000010110
0000000000010011
1111111101011001
0000000001111100
1111111111101110
1111111111111111
0000000000000100
1111111111011001
1111111111010001
0000000000000000
1111111110001101
0000000000000001
0000000000011010
0000000000000000
0000000000011010
1111111111111011
1111111111111001
1111111111111100
0000000000010010
0000000000101110
1111111110001111
0000000000000100
1111111111000100
0000000000011000
1111111111101110
1111111111111101
1111111110100010
0000000000000001
0000000000001101
1111111111111101
1111111110100110
0000000000000110
0000000000010010
1111111111100101
1111111010111011
1111111110000011
0000000000010101
0000000000000000
1111111101001000
1111111110101101
1111111110101000
0000000000000000
1111111111000111
0000000000001001
1111111111100001
0000000000000001
1111111010010111
0000000000000000
0000000000011101
0000000010001010
1111111010000100
1111111101110101
0000000000001000
1111111111111110
0000000000111111
1111111100111111
0000000000000110
1111111111111001
1111111110100000
1111111111111000
1111111111101101
1111111111111110
1111111101101101
0000000000000111
1111111111111101
1111111110101111
1111111111100010
0000000000011111
1111111111001001
1111111111111101
0000000000000011
1111111111010000
1111111111011111
1111111111111101
1111111110111110
1111111111111011
0000000000011101
0000000000000001
1111111110111010
0000000000000101
0000000000000100
0000000000101010
1111111111000011
1111111111110110
0000000000100100
0000000000000000
0000000011010110
0000000010000001
1111111110011001
1111111111111111
1111111110111100
1111111111111101
1111111111111101
0000000000000000
0000000000011101
0000000000001010
0000000000001110
1111111101000000
1111111101101011
1111111110000101
1111111111111000
1111111111111110
0000000000010010
0000000000010110
0000000000100110
1111111111111110
1111111110111101
1111111111111001
0000000000001001
0000000000000100
0000000001000011
0000000000001001
0000000000000110
0000000001000001
0000000000000110
0000000000000101
1111111110110111
0000000000001011
0000000000001111
1111111111100101
1111111110101111
1111111110101110
0000000000010100
1111111111101110
0000000000010101
0000000000100111
1111111111111010
1111111111110100
1111111111110111
0000000000011101
1111111111100010
0000000000000111
1111111111010100
1111111111110010
1111111111111100
1111111111110110
1111111110101110
1111111101101110
0000000000001110
1111111111111110
0000000000001111
0000000000101100
1111111111111001
1111111111110111
1111111111111000
1111111111101101
0000000000001010
0000000000001111
1111111101111111
0000000000001011
0000000000001011
0000000001001001
1111111111100101
1111111111111001
1111111111110010
1111111111110011
0000000000001000
0000000000001001
1111111111111110
0000000000000001
1111111111111001
1111111111110000
0000000000001111
1111111110100001
1111111110111001
1111111111111001
0000000000000010
1111111111110111
0000000000010101
1111111111010101
0000000000001001
1111111111100010
1111111111100110
0000000000110000
0000000000000011
1111111111111100
1111111111111001
0000000000010100
1111111111010110
1111111111110100
1111111110111100
1111111111011011
1111111111111001
1111111111001000
0000000000000100
1111111101010010
0000000000001100
1111111111110111
1111111111100010
0000000000110010
1111111111101010
1111111111110110
1111111111111001
0000000000001000
0000000000010010
0000000000010111
1111111101011101
1111111111110011
0000000000011101
1111111111101101
0000000000110011
1111111110111010
1111111111111000
0000000000000011
1111111111110000
0000000000101000
1111111111110011
0000000000000011
1111111111110110
1111111111101110
0000000000010100
0000000000001010
0000000010110001
0000000000001100
0000000000011101
0000000000110101
0000000000010010
0000000001010010
1111111111110111
1111111111011101
1111111111110110
1111111111111101
0000000000000100
1111111111111100
0000000000001011
1111111111011000
1111111111100000
0000000000010101
0000000001111101
1111111111110110
1111111111111001
0000000000011001
0000000000001101
0000000000111001
0000000000000010
1111111111110001
0000000000000110
1111111111111011
0000000000011000
1111111111111010
0000000000010001
1111111111111111
0000000000010100
0000000000100000
0000000000011011
0000000000001000
1111111111000000
1111111111011001
0000000001001100
0000000000100010
1111111111110110
1111111111111110
0000000000000101
0000000000011100
0000000000011101
1111111111111110
0000000000001010
0000000000000111
0000000000011011
1111111111101001
1111111111111101
1111111111111111
1111111111011110
1111111110111011
0000000001000000
0000000000000100
0000000000010110
0000000000001000
0000000000010111
0000000000000000
1111111111000110
1111111111111011
1111111111111101
1111111111000111
0000000000010101
0000000000011110
0000000000000010
0000000000000010
0000000000000110
1111111111011001
0000000000101110
0000000000000110
1111111111110011
0000000000000001
0000000000111100
0000000000000100
0000000000000001
0000000000000010
0000000000001000
1111111111100001
0000000000000100
1111111111110101
1111111111100010
0000000000000000
0000000000100101
0000000000100011
0000000000010011
1111111111111111
0000000000001010
0000000000000101
1111111111110101
1111111111111110
0000000001001000
1111111111111001
1111111111111001
0000000000000100
0000000000101001
0000000001010101
1111111111111000
0000000000000001
1111111111100011
0000000000111011
1111111111100110
0000000000000101
0000000000000101
0000000000000110
0000000000011000
0000000000000100
0000000010000100
1111111111111110
1111111111110011
1111111111000000
0000000000100101
1111111111011001
0000000000000100
1111111111111101
1111111110011111
1111111110101011
1111111111000000
0000000000001100
0000000000001001
0000000000001110
0000000000000101
0000000000000111
1111111111010111
1111111111110110
0000000000000110
1111111101100100
0000000000000000
1111111111101000
1111111111110000
0000000000000100
0000000000011000
1111111111011001
1111111110100111
0000000000000100
1111111111110010
0000000000001001
1111111111110100
1111111111111110
1111111111000100
0000000000000010
1111111111111011
0000000000010110
0000000000011010
0000000001001101
1111111111110111
1111111111111110
1111111111110001
1111111110011011
1111111111011010
0000000000000001
1111111111111100
0000000000001010
1111111101111110
0000000000000001
1111111111000101
1111111111111101
1111111111111110
1111111111010110
0000000000011110
0000000000010001
0000000000000010
0000000000000011
0000000000000010
1111111110100110
1111111111100111
0000000000000010
1111111111101101
0000000000000110
1111111110101101
0000000000000101
1111111111111111
1111111111111011
0000000000001001
1111111111000101
0000000000001111
0000000000001011
1111111111101001
0000000000000000
1111111111111011
0000000000101001
1111111111001100
1111111111111110
0000000000111000
0000000000000011
1111111110000111
0000000000000000
0000000000111010
1111111111111110
1111111111111110
1111111111100000
0000000000011111
0000000000000001
1111111111100000
0000000000000011
0000000000011011
0000000000101001
0000000011110101
0000000000000111
0000000000010000
0000000000000110
1111111111110111
0000000000000111
0000000000001010
0000000000000011
0000000000000100
1111111101100010
0000000000010010
0000000000110101
1111111111001010
0000000000000010
0000000000010100
1111111101010000
0000000010111100
0000000000000110
0000000000011000
0000000000001110
1111111111101101
0000000000000111
1111111101100101
0000000000011001
1111111111111001
0000000011110000
1111111111111110
0000000001001110
1111111110110101
0000000000000100
1111111110110011
1111111111010101
0000000010010001
0000000000000010
0000000000100101
0000000000001010
1111111111111011
0000000000000101
0000000000111101
0000000000011111
1111111111110110
1111111110101100
0000000000101001
0000000000111100
1111111111101101
1111111111111101
0000000000001000
0000000101010000
0000000010011100
0000000000001010
1111111111101011
0000000000010011
1111111111101000
0000000000000011
1111111111001111
1111111111111010
0000000000000101
1111111110010100
0000000000011110
1111111111000110
1111111111110110
1111111111111100
0000000001010111
1111111101110100
1111111111010011
0000000000000101
0000000000001011
0000000000000101
1111111111111011
1111111111111101
0000000010110110
1111111111110101
0000000000100111
0000000000101101
1111111111101000
1111111110110100
1111111111001001
0000000000000000
1111111101110000
1111111100101011
1111111110100011
0000000000000011
1111111111110010
0000000000000111
1111111111000111
0000000000000111
0000000000100100
1111111111111111
0000000000001111
0000000001010011
0000000000100010
0000000010000111
1111111111111000
0000000000000001
0000000000001101
0000000001100000
1111111111001010
0000000000000100
0000000000001011
0000000000001000
1111111111100011
0000000000000111
0000000010001000
1111111111111100
1111111111111110
0000000000100100
0000000000110000
1111111111000110
1111111111100110
1111111111111011
1111111101111110
0000000011000000
1111111110100101
0000000000001010
1111111111111011
0000000000001000
1111111111111000
0000000000000000
1111111110111000
1111111111110100
0000000000010110
1111111100100010
0000000000001010
1111111111001110
1111111111010101
0000000000000000
0000000000010101
1111111110101100
1111111101110100
0000000000000101
0000000000011100
0000000000000110
1111111111010100
0000000000000101
1111111111011100
1111111111111000
0000000000001001
0000000011000101
0000000000010011
1111111111101000
0000000000100000
1111111111011001
0000000000001011
1111111111110011
0000000000011010
0000000000001100
0000000000010010
1111111111010111
0000000000011111
0000000000011010
0000000000010001
0000000000000011
1111111111111000
0000000000010110
0000000000010000
1111111111111000
0000000000110110
1111111110101110
1111111110111110
1111111111101000
1111111111111111
0000000000100011
0000000000001101
1111111111111100
0000000000001100
0000000000100010
0000000000000111
0000000000000000
1111111111111000
1111111111101011
1111111111111000
0000000001001000
1111111111111001
1111111111011101
1111111111110001
1111111111111101
1111111111111001
0000000000101000
1111111111110110
1111111111110001
0000000000011110
1111111111111111
1111111111111111
0000000000001001
1111111111110111
0000000000010000
1111111111101001
0000000000101101
0000000000011000
1111111110110111
1111111111010111
0000000000011110
0000000000100110
0000000000100001
0000000000001111
1111111111100001
1111111111111001
0000000000100010
0000000000001010
0000000000000101
1111111111111110
0000000000010001
0000000000000101
1111111110111100
0000000000110010
1111111101111000
1111111111001011
1111111111110010
1111111111011000
0000000000100000
0000000000010010
1111111111110111
1111111111110011
0000000000100111
1111111111111101
1111111111111101
1111111111111110
0000000000000100
1111111111110111
1111111111011010
1111111111110111
1111111111000110
0000000001001100
1111111111100011
1111111111110010
0000000000001010
1111111111111001
1111111111110111
1111111111111100
0000000000011001
1111111111110011
0000000000001000
1111111111111010
1111111111100101
1111111111111001
0000000001010010
0000000001100111
1111111111101011
0000000000000010
0000000000001000
1111111111111101
0000000000000110
1111111111111111
1111111111010010
1111111111100111
1111111111110010
0000000000010100
0000000000000010
0000000000001001
1111111111010101
0000000000010011
1111111111110010
0000000001001110
1111111111000101
0000000000100110
0000000000110001
1111111111100010
0000000000011100
0000000000000101
1111111111101101
1111111111101011
1111111111110101
1111111111111001
1111111111111111
0000000000001001
0000000000110010
0000000000001101
1111111111001001
0000000000100110
1111111111111110
0000000000010011
1111111111110010
0000000000010101
0000000000000111
1111111111101110
1111111111110000
1111111111110110
1111111111111011
0000000000000111
0000000000000000
0000000000000101
1111111111110000
0000000000010001
1111111111011111
0000000000011011
0000000000000001
0000000000101000
0000000000110100
0000000000011010
1111111111100111
0000000000100011
0000000000011111
1111111111001000
1111111111010000
1111111111110001
1111111111100001
1111111111110111
1111111111100000
1111111111100000
1111111111010110
0000000001001111
1111111110111010
1111111111110010
0000000000101001
0000000000101110
1111111110110111
0000000000100100
1111111111011000
0000000001001111
0000000000101110
0000000000000010
1111111111100000
0000000000010100
1111111111100001
1111111110110000
1111111111111001
0000000000111000
0000000000010000
1111111111110011
0000000000010011
1111111111101010
1111111111000111
0000000000001000
1111111111100100
1111111111101101
0000000000101011
1111111111111010
0000000000011111
0000000000000011
1111111111100111
0000000010000101
0000000000111011
1111111111010111
1111111111111101
0000000000111111
1111111111100110
0000000001010111
0000000001001000
0000000000000110
0000000000100001
1111111111100101
1111111110111011
1111111111111001
0000000001011101
1111111111101100
0000000000010111
1111111111101110
0000000000001001
1111111111011000
1111111111011000
1111111111101011
1111111111100010
0000000001100001
0000000000101011
0000000000001010
1111111111000111
0000000001011111
1111111111110010
0000000000100101
1111111111001010
0000000000001111
0000000000010101
1111111110100101
0000000001010101
1111111111100110
0000000000010010
1111111111100111
1111111111110011
1111111111010010
1111111111110001
0000000000000010
1111111111010101
1111111111110100
0000000000101101
0000000000011000
1111111110011001
1111111111110100
1111111111111111
0000000010001110
0000000000111111
1111111111011101
0000000000000011
0000000000010111
1111111111001000
1111111111111000
0000000000010010
1111111111111000
0000000000111001
0000000000101100
0000000000000100
0000000000010011
0000000000010101
1111111111101111
1111111111110010
1111111111110100
0000000000100001
1111111111111111
1111111111110101
1111111111101101
1111111111010111
1111111111001100
0000000000100110
1111111111111111
1111111111110110
1111111110111001
1111111111100000
0000000000010100
0000000000101011
0000000000010101
0000000000000011
1111111110011110
0000000000101110
1111111111110010
0000000000100110
0000000000000100
0000000000000101
1111111110101111
0000000000001101
0000000000010011
1111111111111010
1111111111110011
0000000000011001
1111111111101000
0000000000001011
1111111111111010
0000000000100011
0000000001011110
1111111111000101
1111111111101000
1111111111111110
1111111111001011
1111111111001101
1111111111101010
0000000000100001
1111111111101100
0000000000101011
1111111111110110
0000000000011000
0000000001001100
0000000000100001
1111111111111010
0000000000001000
1111111111111101
1111111111100100
1111111111111000
1111111111111001
1111111111100010
1111111110111010
1111111111100101
0000000000011010
1111111111110011
1111111111101101
0000000000011001
0000000000000110
0000000000101110
1111111111010100
1111111111101100
0000000000000101
1111111111111000
0000000000001000
1111111111111011
0000000000101010
1111111111101001
1111111111001111
1111111111110101
0000000000011010
1111111111101111
1111111111101110
0000000000101011
0000000000000011
1111111111101111
1111111110110101
1111111111101111
1111111111110110
0000000000111110
0000000000100001
1111111111110011
1111111111101111
0000000000101001
1111111111110001
1111111111100011
0000000000010011
1111111111110000
0000000000100000
0000000000010011
0000000000011011
0000000000100101
0000000000000011
0000000000011110
1111111111011000
1111111111100010
1111111111110000
1111111111101100
1111111111011000
0000000000110100
0000000000000001
1111111111101010
0000000000000100
1111111111110000
1111111111010001
1111111111111000
0000000000010001
0000000000001011
0000000001010101
0000000000010011
1111111111011001
1111111111100101
0000000000000011
1111111111100010
0000000000001100
0000000000000011
0000000000010000
1111111111110111
1111111111111101
1111111111101101
1111111111011011
0000000000100011
1111111111000101
1111111110111111
0000000000001010
0000000000010000
1111111111001110
0000000000100101
0000000001001000
0000000000111111
1111111111001100
0000000000100110
0000000000011010
0000000000010100
0000000000000110
0000000000000111
0000000000100001
0000000000001100
0000000001000000
0000000000000000
1111111111101001
0000000000000110
0000000000011001
1111111111101011
0000000000110011
0000000001000001
1111111111000111
0000000000011000
0000000000100001
0000000000011001
1111111111100101
0000000000010000
1111111111011101
1111111111101101
0000000000011110
1111111111101100
1111111111111010
1111111111111101
0000000000010000
1111111111110001
0000000001001110
0000000001000111
0000000000000000
1111111111111100
0000000000101111
0000000000000110
1111111111001101
0000000000010010
1111111111100010
1111111111100100
1111111111010111
1111111111001011
0000000000100100
1111111111110000
0000000000000010
0000000000101001
0000000001110100
0000000000001011
1111111111111111
0000000000001000
0000000000000111
0000000000001101
0000000000001000
0000000000100001
1111111111110101
0000000000000110
0000000000011111
0000000000010001
1111111111110111
0000000000000110
0000000000010101
0000000000010110
1111111110111001
0000000000000000
1111111111110011
0000000000010001
0000000000001001
1111111111110111
0000000000001011
0000000000100010
0000000000001010
1111111111101000
0000000000001010
0000000000010101
0000000000010010
0000000000000000
0000000000011101
0000000000000011
1111111110010000
0000000000001000
0000000000010110
0000000000010000
0000000000001110
0000000000001101
0000000000000010
0000000000110010
0000000000011011
0000000000000011
1111111111100101
0000000000010000
1111111111111001
0000000000000000
0000000000110000
1111111111101011
1111111111100101
1111111111011110
0000000000001000
1111111111010011
1111111111111111
1111111111100110
0000000000000100
0000000000010010
1111111111101010
0000000000001001
0000000000011010
1111111111111100
1111111111110111
1111111111110101
1111111111111001
0000000000010111
1111111110011100
1111111111011000
1111111111110100
1111111111100100
1111111111111000
1111111111010100
1111111111101111
0000000000010000
1111111111111110
1111111111101011
0000000000010010
1111111111110010
0000000000000111
1111111111110001
1111111111111000
0000000000000100
1111111111101010
1111111111101100
0000000000011010
0000000000000010
1111111111111011
0000000000000101
1111111111101000
0000000000010010
0000000000001011
0000000000010000
1111111111111101
1111111111111110
0000000000010011
1111111111110010
0000000000000011
1111111111101100
0000000001010111
0000000000010010
0000000000000110
1111111111011111
1111111111111110
1111111111111001
0000000000000001
0000000000010101
1111111111100111
0000000000011000
1111111111111100
1111111111101111
1111111111011100
0000000000001110
1111111111100101
0000000000001001
0000000000001101
0000000000011010
1111111111101101
1111111111101101
1111111111111011
1111111111111111
1111111111111101
0000000000001011
1111111111110110
0000000000000110
0000000000000001
1111111111101111
1111111111110011
0000000000001101
1111111111101010
0000000000000001
0000000001100110
0000000000011000
0000000000001101
0000000000000011
0000000000000001
0000000000101110
0000000000000000
0000000000001111
0000000000000010
0000000000010010
1111111111111110
1111111111110101
0000000000010111
0000000000010100
1111111111110101
1111111111100110
0000000010010101
1111111111101110
1111111111101110
1111111111111010
1111111111110010
1111111111111000
0000000000100001
1111111110000100
1111111111110001
1111111111111010
0000000000100011
0000000000101011
0000000000010100
0000000000000111
1111111111111001
0000000000001101
1111111101001100
1111111111111001
0000000000001000
0000000000010110
1111111111110101
1111111111100101
0000000000001100
1111111110010011
0000000000001001
1111111111110010
0000000000011100
0000000000010000
0000000000010011
1111111111111110
0000000000000011
0000000000000111
1111111101100001
1111111111110100
0000000000001000
0000000000001101
1111111111101110
0000000000010000
0000000000001110
1111111110101110
0000000000001010
0000000000010100
1111111111100010
0000000000011101
1111111111101111
0000000000001111
0000000000011010
1111111111101110
1111111111110010
1111111111101101
1111111111110100
1111111111000111
1111111111111110
1111111111000010
0000000000001001
1111111101110000
1111111111110101
1111111111110110
0000000000000010
0000000000001000
1111111111111001
1111111111111101
0000000000000110
0000000000001100
1111111110000001
1111111111101110
0000000000000000
0000000000000000
1111111111101110
1111111111000111
1111111111101100
1111111101101110
0000000000000110
1111111111111110
0000000000000011
1111111111100100
0000000000010011
1111111111110000
1111111111111100
0000000000010000
0000000000101000
1111111111110110
0000000000010110
0000000000000000
1111111111110110
0000000000011001
1111111111100010
1111111101111011
0000000000000010
1111111111111100
1111111111101101
0000000000000110
0000000000001101
0000000000000010
0000000000010011
1111111111101010
0000000001111101
0000000000011010
0000000000000101
1111111111011111
0000000000011110
0000000000000000
1111111111100110
1111111110100011
1111111111111001
0000000000010001
1111111111111011
1111111111111110
1111111111010011
1111111111111110
1111111111110100
1111111111110101
1111111111111011
0000000000100010
0000000000001110
1111111111111000
0000000000010010
0000000000011011
0000000000000010
1111111110010010
0000000000000010
1111111111111101
0000000000000010
1111111111100101
1111111111101011
1111111111111001
1111111111100011
0000000000010001
0000000001011110
0000000000100010
0000000000011101
1111111111111101
0000000000101001
0000000001010010
0000000000001010
1111111110100000
1111111111111110
0000000000000001
1111111111111101
1111111111100111
0000000000001100
0000000000001101
0000000000000010
1111111111110100
0000000001011011
0000000001000001
0000000000110010
0000000000011100
1111111111101000
0000000000011010
0000000001010111
1111111111111110
1111111111011110
1111111111101100
1111111111001110
0000000000000101
0000000000001111
1111111111110000
1111111111110111
1111111111111011
1111111111111010
0000000001110100
0000000000011100
0000000000001111
1111111110111101
0000000000000010
0000000000111110
0000000000001000
0000000000000101
0000000010001011
1111111110010111
0000000000111101
1111111110011011
1111111111111010
1111111111010111
0000000000011111
0000000000001110
0000000001100110
0000000000011010
0000000000001010
1111111111011001
0000000000001001
0000000000101001
1111111111111101
0000000000011100
1111111110000100
1111111111110100
1111111111100000
1111111111010101
1111111111011101
1111111111011101
1111111111000000
1111111111110011
1111111110000100
0000000000111101
1111111101001001
1111111111111110
0000000000001000
0000000000000100
0000000000010011
1111111111010000
0000000001010101
1111111111111010
0000000001001011
0000000000111000
1111111111110111
1111111111101111
0000000000001101
0000000000000011
1111111101100100
0000000000001111
1111111101110101
1111111111101110
1111111111011110
1111111111010100
0000000000011000
1111111111110011
1111111110100111
1111111110010011
0000000000010001
0000000000100111
1111111111111011
1111111111000110
0000000000100011
1111111111001011
1111111101011010
0000000000100000
0000000000011110
1111111111101000
1111111111101101
0000000000100110
0000000000001110
0000000000010101
1111111101010000
1111111110110000
1111111111110000
1111111110000010
1111111111011101
1111111111011101
1111111110000110
0000000000000101
0000000001010000
0000000000111000
1111111111101101
1111111111110110
1111111111110110
1111111111101010
1111111111110011
1111111111110111
0000000010001100
0000000000001110
0000000000000111
1111111111100101
1111111111100001
1111111111010101
0000000000000011
1111111111110111
0000000001000000
1111111111110111
1111111111111001
1111111110111001
1111111111110011
0000000000100001
1111111111100000
0000000000001011
1111111101110010
1111111110110101
0000000000011000
0000000000011110
0000000000001110
1111111110111011
1111111110111011
0000000000000101
0000000000111001
0000000000010110
0000000000001111
1111111111001000
1111111111100111
0000000000101001
1111111111111001
1111111111110001
1111111111011111
1111111111001101
1111111111001100
0000000000011000
1111111111100100
1111111111000011
1111111111101110
1111111111101010
0000000000000011
0000000000001110
1111111111011000
0000000000000011
1111111111111101
0000000000000100
0000000000001011
0000000000111100
1111111111101100
1111111111110000
0000000000010110
0000000000001010
1111111111110010
0000000000000000
1111111111010111
0000000001011010
1111111111111100
0000000000011011
1111111111101000
1111111111110111
0000000000000111
1111111111111111
1111111111111001
1111111111101001
1111111111111010
1111111111011010
1111111111111000
0000000000001000
1111111111111001
0000000000000011
0000000000011100
0000000000000110
1111111111111110
0000000000000010
1111111111110101
0000000000000100
0000000000000000
0000000000001000
1111111111101001
1111111111011001
0000000000011100
0000000000001110
0000000000001110
0000000000000000
0000000000010000
0000000000000010
0000000000100010
1111111110110001
1111111111111110
0000000000000101
0000000001000111
1111111111110110
0000000000010110
1111111111100001
0000000000010000
0000000000110001
1111111111100010
0000000000001001
1111111111011111
1111111111111110
1111111111110001
1111111111000001
1111111111011110
1111111110111101
0000000000000010
0000000000010110
0000000000010000
0000000000000000
0000000000000110
1111111111000110
1111111111110010
1111111111101000
0000000000110011
1111111111000110
1111111111010001
1111111111001111
1111111111101111
1111111110110010
1111111111110100
1111111011001111
0000000000001100
0000000000001100
1111111111110111
0000000000001010
1111111111110000
1111111111101000
0000000000001011
1111111111010001
0000000000000011
1111111111101011
0000000000011001
1111111111111010
0000000000011100
1111111110110011
0000000000010001
0000000000001111
0000000000010000
1111111111110101
0000000000001000
0000000000010010
1111111111111010
0000000000010110
0000000000000110
0000000000111000
0000000000011000
0000000000011111
1111111111110010
0000000000000010
1111111111101101
0000000000011110
1111111111011010
1111111111101001
1111111111111010
0000000000011010
0000000000001101
0000000000001011
1111111111110101
0000000000011010
1111111111010111
1111111111111000
0000000000000111
1111111111110101
0000000000011101
0000000000010001
1111111111101111
0000000000001110
1111111111111010
0000000001010011
0000000000001011
0000000000011001
1111111111101110
0000000000001101
1111111111111000
0000000000010001
1111111111010110
1111111111011011
1111111111011000
1111111111111101
0000000000100000
1111111111110110
0000000000011000
0000000000001001
0000000000011000
0000000001100010
1111111110101011
0000000000100100
1111111111111111
0000000000111001
1111111111111000
1111111111011111
1111111111110010
0000000000001011
0000000000000010
1111111111110001
0000000000010011
1111111111110001
1111111111101100
1111111111110100
1111111111111100
0000000000010101
1111111110001100
0000000000000110
1111111111101010
0000000000011011
1111111111111001
1111111111000111
0000000000000001
1111111111110101
1111111101100111
0000000000010010
1111111111010111
0000000000100010
1111111111110001
1111111111101101
1111111111010110
0000000000010111
1111111110110000
0000000000001100
1111111111111100
0000000001000000
0000000000001010
0000000000000001
1111111111101101
0000000000000101
0000000001100101
1111111111111001
1111111111001111
0000000000110010
0000000000101110
0000000000001001
1111111110010100
1111111111111001
0000000001001001
1111111111100000
1111111111111011
1111111111101100
1111111111100001
1111111111100010
0000000000001010
0000000000011010
1111111110101110
1111111111100110
1111111111010001
1111111110010110
1111111111111000
1111111111001111
0000000001000001
1111111111101100
1111111111111100
1111111111110011
1111111111100000
1111111110101110
1111111111110111
1111111111001111
0000000000010010
1111111111110000
1111111101010110
1111111111101111
1111111110110011
1111111110100101
1111111111011111
1111111111001001
1111111110111010
1111111111010011
0000000000101000
0000000000000001
1111111111011101
0000000000001111
1111111111111011
0000000000100001
1111111111111110
0000000000100011
0000000001001111
1111111111010011
1111111111101101
1111111111101111
0000000000100101
1111111111100000
1111111101101101
0000000000001010
1111111111010000
1111111111010011
1111111111100101
0000000000011110
1111111111110000
0000000000001010
1111111111111110
1111111111111010
1111111111101000
1111111111110001
1111111110111011
0000000001001110
1111111111110000
1111111111100001
0000000001000100
1111111111111111
1111111110010100
1111111111011010
1111111110111001
0000000000110111
0000000000011001
1111111101110100
0000000000011101
1111111111101111
0000000000100001
0000000000000011
1111111111100110
1111111110001101
1111111111010010
1111111111000110
1111111111011110
0000000000010000
1111111111101111
1111111111100000
1111111111101110
0000000000101110
1111111111110101
1111111111110100
0000000000001110
0000000000100010
1111111111101011
1111111111110011
1111111111111101
1111111110111101
0000000000010111
1111111111001101
1111111101000010
0000000000001010
0000000001001101
1111111111110010
1111111111110101
0000000001100000
1111111111101010
1111111110001011
0000000000010101
0000000001100011
1111111111011101
1111111111000010
1111111110100010
1111111111101011
1111111110111001
1111111111110100
0000000000011101
1111111110111010
0000000001000110
1111111111111010
1111111111101111
0000000001011010
0000000000010100
1111111101101011
0000000000000101
1111111111101001
1111111111011000
0000000001001111
1111111111000011
0000000000001100
0000000000000011
1111111111100010
1111111110011001
1111111111100001
0000000000111100
0000000000011111
1111111111101010
0000000001000100
0000000000001011
1111111110001001
0000000000000110
1111111110101011
0000000001010001
0000000001011111
0000000000001000
0000000000110100
1111111111111110
1111111111110011
0000000001101100
0000000000000010
0000000000010110
1111111111011101
0000000000010101
0000000000011001
0000000000011101
0000000000101011
1111111111110100
0000000001111100
1111111110111001
1111111101110100
1111111110101011
0000000001000010
1111111111001000
1111111111110100
0000000000100011
1111111111101010
0000000000110100
1111111111100101
1111111111111000
0000000000011110
0000000001001110
0000000000100100
1111111111100000
1111111111100110
0000000000111000
0000000000100001
0000000000100000
1111111101100111
0000000000010101
1111111111101000
1111111101101011
0000000000110011
0000000000011111
0000000000010100
1111111111100111
1111111111111011
0000000000010101
1111111111011111
1111111111011101
1111111110110000
1111111111011110
0000000001111010
0000000000100101
1111111110100101
0000000000100001
1111111111100111
0000000001101001
0000000001000010
1111111110100000
1111111111110110
0000000000010000
1111111110011101
0000000000011001
0000000001010111
0000000000000001
0000000001101111
0000000000011101
1111111110111011
1111111111100110
0000000000011110
1111111111011111
0000000000001011
0000000000100011
0000000000001111
1111111110011000
1111111111111010
0000000000001000
1111111110011110
0000000000010010
0000000001110000
1111111111110100
1111111111101010
0000000000110001
1111111110111000
0000000000110001
0000000001110111
0000000000100111
0000000000010011
1111111101100001
0000000001011001
1111111110010101
0000000000011100
1111111111010111
1111111110001011
1111111110111011
0000000001101001
1111111111110010
1111111110101101
1111111111011101
0000000000100001
0000000000101010
0000000000001011
0000000000110101
0000000000010100
0000000001001110
0000000000010110
0000000000000101
0000000000001001
1111111111000000
0000000000000100
1111111111101110
0000000000001110
0000000000000000
0000000001001100
0000000000010000
1111111111001100
1111111111101001
1111111111110110
0000000000001000
1111111111110010
1111111111111100
0000000000001011
0000000000001011
0000000000100011
1111111111010101
0000000000010100
1111111111110110
1111111111111110
0000000000001101
1111111111101011
0000000000011010
1111111111100101
1111111110110111
1111111111110001
1111111111000111
1111111111111010
1111111111001110
0000000000001000
0000000000000001
0000000000010000
1111111111111111
0000000000001110
0000000000000001
0000000000100111
0000000000001000
1111111111010100
1111111111100000
0000000000000100
1111111111111010
1111111111100110
1111111111100101
1111111111011111
1111111111111001
0000000000000110
1111111111001111
0000000000001100
0000000000010010
0000000000000101
1111111111101110
0000000000001001
1111111111110111
0000000001010110
1111111110101011
0000000000000001
1111111110011001
0000000001001101
0000000000010000
1111111110001100
0000000000000101
0000000000001000
1111111111000111
0000000000001000
0000000001000110
1111111111101100
0000000000010011
0000000000000101
0000000000001000
1111111111011101
0000000000011011
1111111110010101
1111111101101100
0000000000011011
1111111111010100
1111111101010110
1111111111001010
0000000000000011
1111111111111000
0000000000000110
1111111111111110
1111111111100110
1111111111111001
1111111111101000
1111111111111111
1111111111001100
1111111110011010
1111111111010110
1111111111110001
1111111111110001
1111111111111000
1111111101101100
0000000000011101
1111111111111010
0000000000011001
0000000000011001
0000000000000100
0000000000001101
1111111111111010
0000000000010001
1111111111101110
0000000000011000
0000000000000010
0000000000011001
1111111111100100
1111111110101101
0000000000000000
0000000000011011
1111111111101100
1111111111111011
1111111111111110
0000000000100001
1111111111100001
0000000000001100
1111111111110000
0000000000011100
0000000000000000
1111111111011111
1111111111111001
1111111111111001
0000000000010001
0000000000000111
1111111111000100
0000000000011001
1111111111001011
0000000000000010
0000000000010001
0000000000001110
1111111111010011
0000000000011010
1111111111100101
0000000000000100
1111111111110000
1111111111000100
0000000001010011
1111111111100110
0000000000010001
0000000000100011
1111111111110101
0000000000011101
0000000000001110
0000000000010100
0000000000011100
0000000000110000
1111111111011011
0000000000010010
1111111111101011
0000000000001011
0000000000010010
0000000000101011
0000000000101111
1111111111111001
0000000000100010
1111111110101001
1111111111110001
0000000000001001
1111111111100000
1111111111111111
1111111111010101
0000000000010100
1111111110111110
1111111111111001
1111111111111000
1111111111110000
1111111111111101
1111111111100001
1111111010111110
1111111101011111
1111111101100001
1111111110100100
1111111101100001
1111111111111101
1111111111100101
0000000000000000
0000000000100000
0000000000011011
1111111111101110
0000000000001011
0000000000000110
1111111111111010
1111111111111110
1111111110111010
0000000010001000
1111111111100111
1111111111011011
0000000000000001
0000000001001111
0000000000010010
1111111110111000
0000000000001111
1111111111011101
1111111111101011
0000000000100110
1111111111110001
1111111111101100
1111111111101101
1111111111111010
0000000001100010
1111111111111111
1111111111101011
1111111011101101
0000000001011111
0000000000001011
1111111101010111
0000000000001000
1111111111110101
1111111110011011
1111111111110011
1111111111101111
1111111111011100
0000000000011101
1111111111010101
0000000000000001
1111111111110010
0000000010001110
1111111011000010
1111111001001001
0000000000110100
1111111100101110
1111111101010001
1111111111110111
1111111111100101
1111111111101010
0000000000000010
1111111111100110
0000000000000100
0000000000101011
0000000000001110
1111111111111110
1111111111110010
1111111111111001
1111111100101011
1111111111001111
1111111110000111
0000000010001010
1111111101010010
1111111110011100
1111111111101100
0000000000011101
0000000000110011
0000000000010100
0000000000011000
0000000000001101
0000000000001111
0000000000000110
0000000001000010
1111111110001011
0000000000101110
1111111101111001
1111111111100101
0000000000010001
1111111111111110
1111111111100100
0000000000001001
1111111111010001
0000000000100000
1111111111100110
0000000000011001
0000000000111000
0000000000001101
0000000000000010
1111111111001111
0000000001101100
1111111111000100
1111111111101110
1111111111100100
1111111101010101
1111111111110001
1111111111110101
1111111111110010
0000000000000100
0000000000001011
1111111111101110
0000000000001001
1111111111110111
1111111111111101
0000000000011001
1111111111001100
1111111110011001
1111111110010010
0000000000101101
0000000000110111
0000000001010101
0000000000000001
1111111111101000
1111111111101011
0000000001001110
1111111111001100
1111111111010100
1111111111010111
0000000000001000
0000000001000010
0000000000010101
1111111111111101
1111111111100110
1111111111010100
0000000000000110
1111111111011010
0000000000001100
0000000000110010
0000000000100011
1111111111110111
0000000010001010
1111111110101101
0000000000000111
1111111110000011
0000000000000001
0000000000110011
1111111111111101
1111111111111001
0000000010100011
1111111111100001
0000000000011011
1111111110100010
0000000000001000
0000000000000100
0000000000111010
1111111111101101
0000000000111000
0000000000010111
1111111111100010
1111111111010001
1111111111110100
0000000000100000
0000000000010010
0000000000001101
1111111110000101
0000000001011000
0000000001000010
0000000000001011
1111111111011111
0000000000101000
0000000000110110
0000000000000001
1111111100000011
1111111110110001
0000000000000100
1111111101111011
0000000000011100
0000000000010111
1111111111011111
1111111111001110
0000000000111001
0000000000010011
0000000000100110
0000000010001010
0000000000011110
0000000000111000
1111111111100111
0000000000001001
1111111100010000
1111111101111001
0000000000100011
1111111011000101
0000000000010000
0000000000010001
1111111111100110
1111111111000110
1111111111100100
1111111100111001
0000000000010110
0000000011010111
0000000000010111
0000000000100001
1111111111100010
0000000000010000
1111111100101001
0000000000010111
1111111111110001
1111111101010110
1111111111111110
1111111111010101
1111111111111010
1111111111100110
1111111110011111
1111111111100100
0000000000011101
1111111101110001
1111111111101000
0000000001100101
1111111111011001
1111111111111001
0000000000001111
1111111111001000
0000000000110100
1111111111110110
1111111111111111
0000000000101010
0000000000001001
1111111111111011
0000000001011111
0000000001010011
0000000000101111
1111111111000010
0000000000001101
0000000000111101
1111111111110100
0000000000000011
0000000001001010
1111111101100000
0000000001100111
1111111110101111
1111111111110011
0000000000111011
1111111111011110
1111111111110011
1111111100101100
0000000000000110
0000000000001110
0000000000000011
0000000000011100
0000000000101011
1111111111101000
1111111111110011
0000000000110011
0000000000110110
1111111111100010
1111111111011101
0000000000000110
0000000000101100
0000000000000111
0000000000001000
0000000000001000
1111111111110111
0000000000001101
0000000001110111
1111111111110011
0000000001000110
0000000000001111
0000000000001111
0000000000001010
0000000000111001
1111111110110010
0000000000011100
1111111111111010
1111111111101110
0000000000000100
0000000001000111
1111111111101101
0000000000100000
0000000000010110
0000000000111000
1111111111110111
1111111111110011
1111111111001110
0000000000000011
1111111110110101
0000000000101010
1111111111000001
0000000000001101
1111111111111101
1111111111110001
0000000000000001
1111111111001110
0000000000111010
1111111111001000
1111111111111001
0000000000111001
1111111111101010
0000000000001011
1111111101110010
1111111111110101
0000000000100001
0000000000001100
1111111111101101
1111111111101000
0000000000000101
0000000000100101
0000000000001100
1111111110110001
1111111110100110
1111111111011100
0000000000100101
1111111111110100
1111111110110111
1111111111110101
0000000000111010
0000000000010010
0000000000011111
0000000000000000
1111111111110111
0000000000001001
1111111111111100
1111111111111010
0000000000000111
0000000001001100
1111111110111100
0000000000010000
0000000000000100
1111111101011101
0000000000000000
1111111101011100
1111111111010111
1111111111110110
1111111110111100
0000000000000011
0000000001000101
1111111111010110
0000000000000011
1111111101110111
1111111111110110
1111111111000000
0000000001100101
0000000000100000
1111111111001110
1111111101000010
0000000000001011
1111111100111100
1111111110010100
0000000000001101
1111111111111110
1111111111111001
0000000000001001
1111111111101100
1111111111110010
1111111111100111
0000000000010011
1111111111011000
0000000000001110
0000000000001101
1111111111100000
0000000000011111
1111111110100101
1111111100111011
0000000011000000
1111111111101100
0000000000001111
0000000000100111
0000000000001000
1111111111110011
1111111111110110
0000000000011010
0000000000000110
0000000001000100
0000000001101010
0000000000001100
0000000000000110
0000000000101101
1111111111110111
0000000000001001
1111111111000110
1111111111111100
1111111110111010
0000000000100111
0000000001001110
1111111111101000
1111111111110111
0000000000110101
1111111111101011
1111111111001100
1111111011110111
1111111111101111
1111111111110100
0000000000000010
1111111111111101
1111111111101111
1111111111010000
1111111111100101
1111111111111000
0000000000101010
1111111111101000
0000000000001101
1111111111101110
1111111111110001
0000000000000000
1111111111000010
0000000000000001
0000000000000111
0000000000001111
1111111110010000
1111111111001001
0000000000001010
0000000001101101
1111111111111000
0000000000000001
0000000000101100
1111111111010010
1111111111001100
0000000000011101
0000000000001010
1111111111111110
1111111111111011
0000000000011011
0000000000001111
0000000000011000
1111111111111101
0000000000010000
0000000000010110
0000000000010010
0000000001101011
0000000000000011
1111111111101101
1111111111011001
1111111111010101
0000000000001101
0000000000011100
1111111111011010
1111111111111011
1111111111111110
1111111111110000
0000000000000010
1111111111100101
1111111111110110
0000000000010011
1111111111111111
0000000010000010
0000000000000001
0000000000000100
0000000000000001
1111111111010111
0000000000010000
0000000000010001
1111111111011001
0000000000001010
1111111111011110
1111111111101110
1111111111011100
1111111111111001
1111111111111001
0000000000001010
1111111111101101
0000000000000011
1111111111110100
0000000000100001
0000000000000101
1111111111111111
1111111111111010
1111111111110010
0000000000011000
1111111111110111
1111111111101011
0000000000101110
0000000000011001
0000000000011001
0000000000010010
1111111111110001
0000000000001110
0000000001100111
1111111111011011
1111111111100111
1111111111110101
0000000000000100
1111111111101110
0000000000000100
0000000000001000
1111111111111000
1111111111110011
0000000000000000
0000000000000100
0000000000010010
1111111111110100
1111111111110010
0000000000000000
1111111111011010
1111111111100000
0000000000000101
1111111111111011
0000000000001100
1111111111101101
0000000000001111
0000000000100111
0000000000010111
1111111111111110
1111111111100111
1111111111011010
0000000000000100
1111111111110110
1111111111110011
1111111111101010
1111111101101001
0000000000011010
1111111111111010
0000000000010010
0000000000101000
0000000000000110
1111111111100101
0000000000100100
1111111111110000
0000000000001000
0000000000011111
0000000000011101
1111111111100100
0000000000010001
0000000000001011
0000000000011010
0000000000000101
0000000000010100
1111111111001110
0000000000010011
0000000000100000
1111111111110011
1111111111101010
0000000000101100
1111111111101110
1111111111100110
0000000000001110
1111111111111110
1111111111111100
1111111111110111
0000000000001110
1111111111111111
1111111110001000
0000000000001111
1111111111101111
1111111111111000
0000000000100001
1111111111111000
1111111111111100
0000000001001111
0000000000000110
0000000000110001
1111111111100111
1111111111101001
0000000000011010
1111111111111010
0000000000010111
1111111111111100
1111111110110010
1111111111101100
1111111101111000
0000000000010001
1111111111111010
1111111111110111
1111111111011111
1111111111111011
1111111111101011
1111111111110110
0000000000010100
0000000000111010
0000000000010001
0000000000010000
0000000000100110
0000000000011001
1111111111111110
1111111111101000
1111111110000011
0000000000000100
1111111111000001
1111111111110011
1111111111110111
1111111111110110
0000000000010010
1111111110111111
1111111111110111
1111111111011100
0000000001000011
0000000000010001
0000000000000110
0000000000001010
1111111111111110
0000000000000111
0000000000011110
1111111111110111
0000000000010111
1111111111110100
0000000000000011
0000000000000011
0000000000011111
0000000000001101
0000000000011111
1111111111111101
1111111111011101
1111111111110110
0000000000101101
1111111111110111
0000000000001101
1111111111100100
1111111100111011
0000000001000111
1111111111011010
1111111111111011
1111111111100001
1111111111111101
1111111111001011
1111111110010011
0000000000010000
1111111111101111
0000000000010111
1111111111011110
0000000001001001
0000000000100000
0000000000001010
1111111111111100
1111111101001111
0000000000000111
1111111111001000
0000000000010110
1111111110010110
1111111111101110
1111111111100111
0000000001100110
1111111111001011
1111111111011010
1111111101001010
1111111111010111
0000000000101100
1111111111100110
1111111111111101
1111111111110001
0000000000110000
1111111111101000
1111111111111100
0000000000000001
1111111111101011
1111111111110011
0000000000000100
1111111110101000
0000000000100000
0000000001000110
1111111110111001
1111111110011001
0000000000110101
0000000000000001
0000000000001011
0000000000011010
1111111100101101
0000000000101111
1111111111110001
0000000000000110
1111111111110101
0000000000000110
1111111111111111
1111111111111110
0000000000100111
0000000000100001
1111111111000100
0000000000010101
0000000000100001
0000000000101000
0000000000000110
0000000000101111
1111111101010011
0000000000010111
1111111111010001
0000000000000111
0000000000011001
0000000000000110
0000000000010011
1111111110010000
0000000000000011
0000000000010010
0000000000110100
0000000000001110
0000000000000011
1111111111101000
1111111111110100
0000000000000000
0000000000111011
1111111111100001
0000000000010110
1111111111110000
1111111111111100
0000000000001110
0000000000010111
0000000000010010
0000000000000100
0000000000010001
0000000000010010
1111111111111010
0000000000101101
0000000000101001
0000000000001001
1111111110001110
1111111111000001
1111111111101001
0000000000110010
1111111111101011
1111111110110100
1111111111111100
0000000000010000
0000000000111011
0000000000101010
0000000000101110
0000000001000001
0000000000001001
0000000000101001
0000000000011011
0000000000000010
1111111110110101
1111111110010001
1111111111110010
0000000000101011
1111111111110000
1111111110001110
0000000000001100
0000000000000000
1111111100000111
0000000001010111
1111111111001110
0000000000110111
0000000000100111
0000000000011000
0000000000000000
1111111111101100
1111111101111100
0000000000010001
1111111111011110
0000000001001010
1111111111101100
1111111111111100
0000000000000001
0000000000000100
0000000010100000
0000000000111000
1111111111101110
1111111111111011
1111111111111101
0000000000110110
0000000000100000
0000000000000100
0000000001111111
1111111110110100
0000000011011000
0000000000000100
1111111111110011
1111111110010000
1111111111011001
1111111111010110
1111111110011011
0000000000010001
1111111111000110
1111111101111101
0000000000010010
0000000001001101
1111111111101111
0000000000000111
0000000011100010
1111111101110010
0000000010011111
0000000000001010
0000000000100011
1111111010100001
1111111111010000
1111111111010010
1111111111001101
0000000001010000
1111111100101100
1111111111100110
0000000000010111
0000000000111011
1111111111011111
0000000000000010
0000000010011011
0000000000010000
1111111111100010
0000000000010110
0000000000100110
1111111101111010
1111111111100000
1111111111100101
0000000001011110
0000000001000011
0000000000110010
0000000010111001
1111111111110111
0000000001001010
1111111111011100
0000000000000101
1111111110001001
1111111110110010
0000000000011010
0000000000110101
0000000000100001
0000000000000101
0000000000011000
1111111111110000
1111111101000000
0000000000010000
1111111111011111
0000000000000101
0000000000011111
0000000001001001
0000000000001110
0000000000000111
1111111110110101
1111111101111000
0000000000000100
0000000001000110
0000000000110110
1111111111011010
0000000000101001
0000000000000101
0000000011001000
0000000001001000
1111111111101010
0000000000111101
0000000000000111
0000000000111011
0000000000010101
1111111111100011
1111111110110110
0000000000011101
1111111111010010
0000000001000010
0000000000010000
1111111111101101
0000000000001111
0000000000011001
1111111111011101
0000000000101000
0000000001000100
1111111101111101
1111111111100001
0000000001010000
0000000000000010
0000000000010000
0000000000010110
0000000000001110
1111111111010100
1111111111111000
1111111111111101
1111111111110000
1111111111001010
0000000000010110
1111111111111011
1111111111110000
0000000000000011
0000000000000010
1111111111111110
0000000000001010
0000000000000100
1111111111010001
0000000000100100
0000000000001011
1111111111100001
0000000000000010
0000000000000110
1111111111110011
1111111110110010
1111111111110011
0000000000001111
0000000000000010
1111111111111101
1111111111000011
1111111111111011
1111111111111100
1111111111011111
0000000000011011
0000000000001101
1111111111111101
0000000000000011
0000000000000000
1111111111111001
1111111111111010
1111111110110111
1111111111101010
0000000000001100
0000000000110101
0000000000000111
1111111111101000
0000000000000111
1111111111101101
0000000000011101
0000000000010010
1111111111101111
0000000000000101
0000000000011101
1111111111101001
0000000000001011
1111111111111110
1111111111101000
0000000000100000
1111111111111011
1111111111111011
1111111111110111
0000000000111100
0000000000000010
1111111111110100
0000000000000001
0000000000011111
1111111111100000
0000000000000001
0000000000001111
1111111111101001
0000000000001111
1111111111111011
1111111111001111
1111111111110111
1111111111111101
1111111111011111
1111111111110101
0000000000110001
1111111111111010
1111111111101100
1111111111011001
0000000000100010
1111111111100110
1111111111111111
0000000000001001
1111111111111101
1111111111111000
1111111111111100
1111111111100110
1111111111110010
0000000000000000
0000000000000000
0000000000000100
1111111111101011
0000000000001110
1111111111101100
0000000000011110
1111111111101100
0000000000000111
1111111111110001
0000000000010110
0000000000010100
1111111111110101
0000000000000111
0000000000101110
0000000000011101
0000000000100111
0000000000011011
0000000000000111
1111111111010101
1111111111111100
0000000000011010
0000000000001001
0000000000000111
1111111111111010
1111111111110111
0000000000000101
0000000000001000
1111111111101110
0000000000011000
0000000000011110
1111111111110110
1111111111011111
0000000000000110
0000000000001011
0000000000000011
1111111111110111
0000000000001010
1111111111100101
1111111111101100
0000000000000100
0000000000000010
1111111111101100
0000000000100000
1111111111100100
0000000000001101
0000000000100111
1111111111101111
0000000000000110
1111111111111100
0000000000010000
0000000000010110
0000000000001001
0000000000010101
0000000000100011
1111111111100010
